{"model_topology":"{\"class_name\":\"Sequential\",\"config\":{\"name\":\"sequential_1\",\"layers\":[{\"class_name\":\"Conv2D\",\"config\":{\"filters\":8,\"kernel_initializer\":{\"class_name\":\"VarianceScaling\",\"config\":{\"scale\":1,\"mode\":\"fan_in\",\"distribution\":\"normal\",\"seed\":null}},\"kernel_regularizer\":null,\"kernel_constraint\":null,\"kernel_size\":[5,5],\"strides\":[1,1],\"padding\":\"valid\",\"data_format\":\"channels_last\",\"dilation_rate\":[1,1],\"activation\":\"relu\",\"use_bias\":true,\"bias_initializer\":{\"class_name\":\"Zeros\",\"config\":{}},\"bias_regularizer\":null,\"activity_regularizer\":null,\"bias_constraint\":null,\"name\":\"conv2d_Conv2D1\",\"trainable\":true,\"batch_input_shape\":[null,28,28,1],\"dtype\":\"float32\"}},{\"class_name\":\"MaxPooling2D\",\"config\":{\"pool_size\":[2,2],\"padding\":\"valid\",\"strides\":[2,2],\"data_format\":\"channels_last\",\"name\":\"max_pooling2d_MaxPooling2D1\",\"trainable\":true}},{\"class_name\":\"Conv2D\",\"config\":{\"filters\":16,\"kernel_initializer\":{\"class_name\":\"VarianceScaling\",\"config\":{\"scale\":1,\"mode\":\"fan_in\",\"distribution\":\"normal\",\"seed\":null}},\"kernel_regularizer\":null,\"kernel_constraint\":null,\"kernel_size\":[5,5],\"strides\":[1,1],\"padding\":\"valid\",\"data_format\":\"channels_last\",\"dilation_rate\":[1,1],\"activation\":\"relu\",\"use_bias\":true,\"bias_initializer\":{\"class_name\":\"Zeros\",\"config\":{}},\"bias_regularizer\":null,\"activity_regularizer\":null,\"bias_constraint\":null,\"name\":\"conv2d_Conv2D2\",\"trainable\":true}},{\"class_name\":\"MaxPooling2D\",\"config\":{\"pool_size\":[2,2],\"padding\":\"valid\",\"strides\":[2,2],\"data_format\":\"channels_last\",\"name\":\"max_pooling2d_MaxPooling2D2\",\"trainable\":true}},{\"class_name\":\"Flatten\",\"config\":{\"name\":\"flatten_Flatten1\",\"trainable\":true}},{\"class_name\":\"Dense\",\"config\":{\"units\":10,\"activation\":\"softmax\",\"use_bias\":true,\"kernel_initializer\":{\"class_name\":\"VarianceScaling\",\"config\":{\"scale\":1,\"mode\":\"fan_in\",\"distribution\":\"normal\",\"seed\":null}},\"bias_initializer\":{\"class_name\":\"Zeros\",\"config\":{}},\"kernel_regularizer\":null,\"bias_regularizer\":null,\"activity_regularizer\":null,\"kernel_constraint\":null,\"bias_constraint\":null,\"name\":\"dense_Dense1\",\"trainable\":true}}]},\"keras_version\":\"tfjs-layers 3.5.0\",\"backend\":\"tensor_flow.js\"}","weight_specs":"[{\"name\":\"conv2d_Conv2D1/kernel\",\"shape\":[5,5,1,8],\"dtype\":\"float32\"},{\"name\":\"conv2d_Conv2D1/bias\",\"shape\":[8],\"dtype\":\"float32\"},{\"name\":\"conv2d_Conv2D2/kernel\",\"shape\":[5,5,8,16],\"dtype\":\"float32\"},{\"name\":\"conv2d_Conv2D2/bias\",\"shape\":[16],\"dtype\":\"float32\"},{\"name\":\"dense_Dense1/kernel\",\"shape\":[256,10],\"dtype\":\"float32\"},{\"name\":\"dense_Dense1/bias\",\"shape\":[10],\"dtype\":\"float32\"}]","weight_data":"BzFNvTeA4j6MrtA9vD82PuI9xT7cw7W+bh5Uvg0pkb3CsEW+H4vNPWfH6L2ZZ7M+f+CfPse3wj0+v4y8Rcx3vipr2j4UEAc/gi39vQLskj7e4Fc9vYZNvgEORz6Pufc9FEYRP9PWSj4jZtQ9AzbpPkaS1D1C6qK+4Id2vpQk3jwGJWA+iYUyPu9Ipb3Rbum9iALuvbsJID7Jcds+v5hDvtPNEr4er7g+Hx6evVME171E38S7gzaUvW0fKT1aVYi+AZ3KPhEyJj67mW0+3kviPBlmIT9jUS69tQiVvgDaJb41eEY+5jqOPtaMTr78ny8/NlOaPqaekL75GFi9S2P8vQVJsT16YeK718FevdzXIT+PAOK9A7w+vvguvL2BB+I8q7DlPhtz2r1WAWW99+tEPnFVdj7oUt++luX7vPtqF7527Kg9xIBBPdevpb6MS/g9NLTePbune75Dt0o9KhxqPh9Tjj4zFgM+DbggPnWkBDuIHbY+CCZdPioW4b2dCKK++EmZPufFzr74UQ++5T0UP4DV3D2jl/A8i0F7vLe01r2qY7A+IHa2vvt0Ir1aW4k+7E1JPlUvgj4QRTi9IhvyPKFmQ75gmja+1fQPvSCkSD7PEDI+0zkyPqRVkr5+jpQ8sN0pPhilv7xxH1u8bmmkvUrazTyocr8+JWosPox+u74tHGM+9MKPPmZhgD4v0kK+pjutPg0W17wTHNg8EjGJPQLVtD5c4JO+EouhPLysQj1TESM+aPonPsQJjb7YJSi+wBJjvefxWb3gbJw+GiWLvB+Mnz4jjbs+7l56Pt0vQTwNmwQ9kRHLPKaOnL7vJto9gqcbPgvpvz3el4U9xHYvvhsoGr4snhw+XJaiPrhktr7gaMm+9Fl2PpGeGL1IQx28TsnPvTPlfz78JqI+iHuLvlR7Cb7LTEs9shHGvmlLgL4H1Le9XwK6vgDTrr1agSw+eYyJvgvnHL6Tqbc9ZWaTvTsApb4Bzd++jlaIPk8JrLyvEMS8GxO0PXSK8j3v7nS9WKSXvvPCPL6aZYE+u98yPnzAMb51bPe9ONCavtcVQb6o1Jo5FN1FPsYKKD1wtKi96mLPu1TtwTsRoC88JJg5PWULb7zsOmM98eGJPCXg4T1aFd89EaR1PQWosbwIYD2+FN9fPpjhfb3S/JU7zHbQvOKjQr6gKpU9Qa+aPMo7dbtDC7c7EIghPH/LND0EO+u7GP3LPAihdjukbwe+TOEYvbwOFj6F/h++eGHEPQ5IDT2iJQm+31voO/BNsb3vqfK9Y26QvX4dF7zAb7k9FlbivfZ7hbxApio9lmrXPIZW7L1Mo/08rN7lO5NxgDxrHTK8Nk1Zu9UdOLznl++9RdUBvueGkT3vLnQ9v41nPZGpwrwlM4S8cel8vS/uSz1kja69ohl6vBTgcr3RSEK9sZEGPM+6MT3dwHa9TM0VPSZWPb7qsyS9aM3EvWh6s71w9ec9kF8QPTDqlL0rDyc+3OF2u5JOBDwXURi+zdsFPBkwhDvDO9G9YQ/8vZ+yqD16XYW9REKePNu3XD0CT9+8QCnWOtBF6LxkdvK84k5mPcAAHb0kBAW9NLKRvZoUfL03O6W9m1RCvXkmEj1K4ZG9lERLPcNsvjvAeo49p/O7vd/eBj3iFvQ9o3PVPEsh7j1cOMO99qUHPbmSM71+YjI8uPlJu8gEBj0Q0887vQ9FvdTNkzzkKx+9adM+vR+Qnb30pS09Z4cAvnh7ML2wLuM8mhmcvcY++zzjFOe9F4qnvJ/1oruoTak9ZdAdPe4AWTzvU4Q9XbmtvKQqZz0X3Ni9XOiwPSw+oT3IGhu+6D1pPfswhr04ACs7uL2nPBEDET0XvdK90g3kPU+2LD2LIZu8HXclPddgbD1/ALO8ZCN1vU2Rmr3Z/5U9PYDTvJ7Y3b3yIhA9DLmDPYCKQT1SwrE9eHeTvOzzML4YWGC9CWTFvfTsiz3apQy8VLGeu/zY4D2kMo29TL0qvbVAKryWhxG9xUMovuDrr70YO9i8eM2EPTR+vD37mFc8pNQwveeNz73pK9W9Kho9PMIBJT0hQg+9xwGJvbs/zj1edgq+jLlNPsU+Tb1US8g8cyw0Pq4yjT0ReAC+N/e7PbTcAz0tgAQ+UEg9OyEAmD2xypU759fPPKYlbT2XvAI+95MvPPVwBT5CG6G9sa4HPSM+FT0c0Nu8peExvdidqT3356I9hOM3vOmcVL1ViVm92Dklu7Vy+Dzug8e9lhgCPomytz1W/Kc98friuz58Aj7DcJG9W6/ju7qrIj0rweC9H1mpvRL8mz17Yi490ERLvY5kyz0v7zQ7kN7DPQSfhL31i6U76ZaFPGcuvD21Fx89rceFvBDQFL0sfAG+MmA/PFuSDD2yZoi8OWg5PFFp/rw1BLA8dnhcvXbwLTtiJ6K7cKjyvEotN7wHQFM9MOXPvaVVoT3jjog96UNyPcfzYr1Fwou8ZXgrPV40DT6Sd2o9iY1GPeZW5b3wcN+94V3ZPZ2eRL15xgW9FYpMPdrzcz33VMO9tDzIvIexBD5t5D8+xlTxvL1kBL49XTw9Lw8ivskzmDuRNfG9wd2zvcUsRD10YLQ8fOvLvaAKuL0bN4O9gUOCvRsroT1SMqQ9pog3Pl6/Nr2CBSa+JhqMPaGHwj3espi8AOHgPYrQvb0nAyA8A1XnPfwGXr0BrzK+a90bvqGfxzwZOuA7UUQBPYeEEj1thJo9yobRvMfrCD7Oo9c8b2jLPefyHz1GS7u9mLEsPtPI9b1kmjs9jX4PPA6Dhz2NWAa+WnWpvNlqgL2JahO9aH5MOjAnFD2THN69yUCyvEuNAz1KxLo8gtthPCU0rz3F5YG9icuFPddUHL3v5XQ9E1uZvTsDl7uwpna9XBYRPQL3M7zwyoi90WbivIHfED5MQxi9JToDPv9GkTzuLKQ9w2M9vPOqhbwRkDw9XgLavQBUfz31z/g9PMkPPUZrTj1DKYg9hFCCvJvebb0qaxo9vpc0PTPXC72bvyo95guDO3H8az3VC5G9jZbAvCUfkj3uDok9S7T5vK1bvzwHRKK4pu4dPbPNqTwybPi9bgWFPbKHkT0wQyA8/aptvUAr8z3iAQc9AbdsvAJ49T2d7v+9PxIpPCJNXD0+bOm9n6IIvt459zuJvEa9kyCVPQRLLLze9tk8AgCNvZg8VrxFMJg9gEA2PH5GpL1ldUI9d0zWPbZ7wTuR/Q0+V/hYPXJ22L1IuAA94KErPXoxVz53IB291C6DPdn6P71YVM69Q7lHPb5X6r1ZhX899ZL6vLJxgTo7BXy9tvXMPM5PgL1nHCY+SYRJvf4ger2BXGw9atLkPbAw8DwFLAI+UO8QPWlah722lPM7E26qvO3Z4LzE1uW9Q35HPYLnHL2LrZg9NB8EvcPwrbwyKQm9176AvYMRF71tMmW9Mk3fvSb5NzwxtOc9xKPQvQsIHL4bZLA9FmnFPYSitTxKCpa9InnaPeCU9r3weAg9uYeSvUwEGj5glLO968iavYvAZTxUWh89wRDkPR/CxL3qxJg8vWk7PWHkTD2NfF69bz/BPRbJC7zUx7W9JNoWvMJjjLzU/pm9vjk/vXzemzsHgCA+trBnPFdl1jy5mcQ92RF5PY2Htb1gwPU8w9ILvcmCGT0u6ZW8UjngvLW81ztya0i99ZHvPcYm5j1mzpm8RXxlvMfJrLtQXQe9ySk5veVdub3XIdg94uOYPUMhhj36Db89HOyJveLRnjw/G6k5yqD6PWE/yj0YYbY9meliPUCyH7u0IAK+YV21vbRM373WxxG+DYLXvEA0rbvmLNi9RtE9PRqPur0yTzM9cPAjvSmrLz1qBkQ9U8AnPnrgT71ysji9QUikPEJNwT3b7ps9KJn9vYZ7qLzFPuk9pbtFvKiSmDv+rS67O7wiO9bn17yVyPG9T1aRu257j7vnwiM9j8E4vuZDur0GRlm8LjluPT1T1z0QhJc5S3yAPbfjqz1mzsE94tVvPFjIpTz8faq9tCePPJjfZT7UCTQ9pXJMPTqNYD3/6XU9Jyk2PXKnzjy/82g9k9oKPaldtL2Sc9o8QuIcvY2S0DzcbCi9D8JpPR+qRj1oq5a93h/OPcsyHD0/g+W9nqqrvTnaMTyQNeg9hLjIvRNH6T2goFs8hCzVu8YaBzx+FwM+hiYkvjjLnz3CZMi9M2IMPvwWHz6WfHO9sgYLPXKyBz18IRo+d6VXvRSELr6TjKe9FcXsPNpMjTy0qn69WNS8vR1AH70qHOg992GqvaDNCD41cJ89XodQuiKLVD6StJi9dWGOPaS2CT2qrlQ9052gvOdPObywOsI8k3BGPUiTHL1AVC49M1taPZqRhL0Lbkk9w6wnva1FGT3zQ0s9szfqvL/xej3Xew6+FxYVPGwOjrxp+Uw95EpJPb1NWDtfSg28sqXcPQFPkz33uYi9mRU/vRVbYzwRLFk9tP7NPDPOv70hATY9Oq+3vXDZ8bx8hAi9QcmgPYIepzxxMHM8rAMUvVGED76fOqy8IgHLPYoRlrsWrI+8+tmEPRzIzrwnlPY60GYpvU8UOD3Nt5w9h6UXvtDhQD7O28i94t3hPD/d7Lsutkq9tn0SPBA3dj1qvS89lCwNPhO7DD3Dzmc9eGoBu0IQAz5NZ8w9pIwKvFDquzwaS0c+fGyhuHIXAr1PLZq8bSQUvmA8pbyB62o9SLflOmSV1r2F/ya8KbgKvYfz1T1O9kG9nqq4PK70K77TNUA9AQ46vbnVbb1eKNE96uPpPAQXLb03+K29v2K7vAc4xb06MgO98zeePF5wR72fob498KDLve94Wz1tUIY+nwICvg2csDxLtiG9fMnlvby3wTxeX5a9Ayu5Pa9/5D3VGeS5+90GvRDcHjy8zgo+B8okPmg5wT0S7gQ+beU/PacxFr6uKuQ8TnTpvA6wvz1stC69ex5Bvry/a70aTsY8EhGJvSF+cL11NAy9ljLPPUSNhz2IPSs8yqeOPcv9/r1JhDC9k1TLve4FL75utI69NWPHvf15wr0AxDo9pzN6vT0h0D1m+j49PiIPvu0pWz3KzOy81uoWPYwOx73W9rW8WTYEPTX0kb097mi9jl6GPVTfOrtO3o+99Z0Fvtw/fr1dMYu9D2D3PE3qGT3FV5C9j2r3Pa42Qz06eME92g+QPR/yYr0FOCG8abg+vbMdB70/CEo8q6wnvaX5Ub1WJRY9I78WPCe3Tz1FKsq73D73PXk4wb3DntQ9PDubvas7zz2UvyO7hcUKvf2VBrwNQcy8/2LsvLyI0z3wFQC9QtCpPIzLKj72MW89RuqPvL2elr1p+hQ9XLemPcd7YT2Yn+K9K/ODvYQCKz4b3U+8qrRHPRCBSD0sOmS8vB8TPQ2uhL3tKx49yCDZvbQF4DtRFyU8BZPDvbJEFb3fX8U9YjCvvIyxML3l93I8maV9PHCcZT0Td8+9lj4tPSl/c7179ps9uxibPaSMHbyKK2y9QgzuvDcKxj3ni5i8a5ILvhw+iT6uGXe+fU5zvY8CDT6x3ZG9G0rXPPb/Gz4lEw89uOZPPUyZtDkzAa29jyNcOx0jxzywPTe9Z7+JvXyHQzsMAAM+Jg93vuLNrD2LyQC7UD5GPE4tWz0lJGY9cpEqvZ+2JD3P59W8FLtnvVRv1TzpdQe7onufPe5Wh734DiQ+MJwcvqrCYjwJY+E9L6VzPYJ3O72d1G49D/zWvKs39DxYTIW8duGJPbrdDL5i4Em8xQgTvVH2rb0PR9o98W14PMxxvz1uw4i8vKOiPWSLHL09RP49+58xvehIST0wBL88ZUyuPdK0hb1tHKG8UNEWveH88L32HZ29nB7ZvPU5N70TNw89BEfcvGoFBz0YaLs8i05aPMi8Nb2Z9hO9N/PaPaG8rr0jbTy8Xx4bPgtkoT0xzk0+PTytPTaKzLxqu8y8OHE4PBhMk72bZlE9jvCxPSP3wL3ZG+89/JMxPeyy3z3wAc29Yp+VPdmh4T0/Xkg9CC1AvQph5D1HY0+8VSHpvYFSCb2rSWS9RCT6PTDmAz0NSaM9oTKZvcugGj4qRR09trTdvbih2j0QQGW9dzHgvA8Uez2u2Qy+uRL/O73LmD3WF2e8VH7mPKwNhDo+8g09K3FaPZ/Wpr2sVxg+Hp8Yva6wyryD3Ki9W9/avCn10jxX0Zc9hYwxPB4Y5j0jGPC9QHhrPudsk72by4O9Ms6cvBxnFb0eX+A9hl7MPYH4r73ayx89gvVuvXS+zrt07Ek9nMGjPW13Hr0jtt69iRL9O79laz6r+Bq9FMOZvWCFnL2NiFe9Dt4+vRIUiD39SJQ9raDZPdijvbwOaFu9nIjXPTvlPr39eL68bdyvO/BBcLo67ki9HrDtvYxiZr1YYCq8RU2NuxAZWbsn1Ne8JQy7vZ7hCDoBUJ89BiRrPYAwqD3aMJG9duk3vVWLELoWTYA9SmiNvY17hb2YdKI88b95vXz9qTwInY29d8lePankmj0CArW9zTijPZlzTLzhVdI7XrmBPfktoT23V9G6yd1BvQIr6D0GO9w9Fra8PRgBj7wE9EE9nlKfPOhdh7ymyhe98v43vGsUyT37njW8b71mPHKMUj42kLu9xIAhPetrID631Ka9A8gtPRDnmb2JsAc+gR/0vOhBBjyKyEw8EbTyPU+E4LxWQak9IRWHPTLEyL1ritQ96SzOPbTcpryscqK9NGP1vbPFpbxRdNA7Fd2gPT48gT2rGbG703aaPJDFkLrZoZe9GUdLPa3vG71ErZo95pxivWZ+q71yM8I7ECkbvDi6jTzfm6G85aCmPXkdXzzSMek7cSSuvXboqDxOdo+9NyliPT1sgr3p5Tw+Fd7WvGgDXD6pMTS8PwGePXFqbD1R7CC9/+VevbDb772czIq96OtPPOG0TLwgEbG9NRWIvVkZ0L1ET0W9YgZbPYK7Br4N7Wg+mmNGvHopmLyR98A9KqMhPGEQVj3iPeo8ee7GPO7k4L1sEXu9InQHvRYcabw+R7U9opjjve0kHj2KvD69yQwmvHeCwjt6YL29U+s6PF7PFb1jCN68ih4Cvtn5XL0Uz6w9yKaxvbmGNT1L6KA86veEPcRYAL1mMMS9F9hlvU2pzDsWDAG+0QnKPaKz5TzNonq9qpYLvbPOm7uBuLy8dxGfvAva8j3nqOe82XhoPY5vHT1L1Bc9jXSFvYv9Xr0QFX+9Kd8JPea5t7zY8wg7AMCNvTvlXr0H+1m7PQqWvL9D/Dv0baC9HVXCPGWziD1AGM69LVyWPSNXQD3AvzC86DmdPT71eD2vMeg7vGENPgYl57wTVJ69N4GzvbGGBz68iIE9VKzJPaIcvL3YDNa9ea4gvZSD870kogA9X91XvbdIDDy5PUy9qjQVPmOH5zzAX5u7XrSBu5MssTyuWaY8Q0YwPVMfDrzhzKC90p4FvYHtvr2eF089o0wUPSs+eb1uRsa9T2EHPD81dr3fUS88icCNvZQe1r2kjr89pJLWPdgqtL05fxI9eCbePMchPLqaG+u8wx4LvTwH6D2a9fe7mLriPbF9FT5LNCw9aZCQPW5xAL52fgC6ctbDu+fEwj2kpo28C4e/vBkMy72xnh8+DoZ1vTKRgrz4i4Y9X3zbPa3HVT5gIn69cVy4PLzZyTyrdxq9wsYGvmJLhj3FaMK9Z+MZuvv7Uj1f+3G9lqlXPZwZpLuF1V+9eGdFvfKMsL2MGco9Mp3BvZdYnT1qkYs86614vaqOA73Vlgw8Kp84velRFT3Sd+y9QsxvvQxWy73k6CA+e+KXu8/fh71oPKE9g0MzPbT3ib0TwT27DAThuwux/zx/jvK7pGgNPW+5LDx+5Zs9+1f1PV0W1LzRZ/U8/8ihPYtHvD19jGe9NdljvQqzTj1vfxO9RiLavXqo3LwSiZE9aZZHPSt4dDttS8u9RJz2PFdqPDweWYk98RHwvXnBCL1oI6294QA6vqDV9D3dQ0o8WE2dvRhSW753CBi9hJinvYWbEL64d0u6cQrzvX1NlbyL+cC9jA5dPmXOxLyCLmW9YDs/vSBu9Tz6wxG+VgYrPWpZRT1LIrO9VK59vdK0Er4f27G9taPzPaPiSb6a1eA9rLgIPozkX70yVWQ8sx+lvAtMnzy9NAS98NXiPfw7Rr3TVHW8eGqLvflZyTxyDZy9KbPxPcFb7TxtGIW9s3G3veL+QjwNJA09PJtNvYnUij0Oy/e90xGavdhGWDuAheM8VxKKveVvhr0drRs9nJHgvb4oA76xFWS9qjdSOzLRAb716Ma8XMZpuhOUojylBAu+HRO1PWJSp73nC5E9kumxvZqDwz0dgOc8oWPCPBwf+7xM4ky8b/bkPRkI7b3hCH48+D7Lu92ukLuYNdi6+hSxvUiSxr04AR89MC4CPtNn1bynVJA9urxxvdgZgLtUqIW8ZLItPt/h8Lv1RoW9vqrwPBgdOr1l6/o9+aXwvB1r4bxqfAU9HVmvOwi2kLwALn09pL+UPBzd5LyyDKo9mISyOP2cAzz2Whw9kOL8uw4Ne73Fovy9aAz7PYx7mT3LVVw9FQTwPfMVgbwJkZC7J7VCvRYbw70G8cW7lG66vQQKbT1idK890VOPPF3RGT0/KkW9TqCnPS4EHDykSJs8U4KBvdg3tTw0d6a9pFmFvM7XCz7Zx+i83sPlvR3BPDx7LZ28qmC4vSsNI74kKdM9YXSlvdbCmb3w4Q4+QpOKO8boSL2QL4M9RWcCPtQWML2Gxzw+OnSLPbPAab36ike8wCTWvVYZDr2+ajo7++P4vQN2Ab1trum9PXu6PUN5UD1z+1m9/sMNPVvtQD3G15k8em70vMbC7rxrpOU831S4vG8ssT3wTt09UhTEvZ3syLybeje8SCaYPH7B/73WT3q9OEphPVp2tD1cMGG9AQ7DvREXUD0JulQ9Z+kevuX/CL13Zg4+flDEvXOjEr6WxBk+wg0OPWwSNz2u/Rc9OxDBvepZSr25Tq683IY8u+qhur1majo9D5nevSZce72Rrwq9zGM5vVly4LyCf9u95ThrvUlp9rvs8NA9dYQLPiEorj2OAhe+lc9GvefZwz1jb+Y73MpdPFiIPj3Vyde82t7zvB5Cz72GOCc+tDRCunpqfz3EhC49tpGvO5+9hr2aYYK7XgGrO8P197wNv+W8gY3LvXvsBz71ih48U6XYvRuTVj1s6uG9b3AbPeo9Hb2Qs4S8L+AQvawJx73YP5M8RVESPaqPAD46TGm8IfHnPK8Fmj1k4Dm9lTKSvQfoiDyrmsm91tVwOpLWN73uDZS93+KeO1nTL73d2qy9b5c8vGlJjD2fTWq9q1CpPV4u7b1YOoa9DCgBPr9sir2IgTK9g804vKGzLj6/ZFQ9uA4svYWoaj120Di8msLsvD/IBLzuepC9rIHdPKIHLL50DO68yiGJvA/mEz6f14W8LHEGvVKlK7wWfUK+QmUEviu8A773Z5c98imHPbILxT0749S8gQ1dPQL8pL39Hu49KqgJvi1JB73kUQ49BhJJvet7Q72ZEzu8ttAYPFkdiT36gaA75XeUvWLfPruamrG9S4QYvp+xxL0KdZw8vyRgPUO/jL10GrO9IvonPcfFKb0se9+99ONguqd9Oz51UHW+jYnXvfQYPrwEU9s8nHaXPLdprT1zm1s9Dv2hPdpRR7552OW9WX/CvS4CmT1PKKe9KCPavBKuhj3RRDU+KNGuvfULN77xXYU91HlEPMKtqLzZrxE+9kduOzsWGD1swLK9yDEjPZZvdrw8ZQc90dusvc70xbyJvaU9nhhDPHu9Gj4WVQO9rkwQPGYazryeWQI96EYEvmFjaD10LW68enNOPOLScT3XD5297stjPQhzyrzB3CS9E3KWPNWdUT0Tp6u9Y2tNPZHfAz7+k5A9v6q1O8bskbtbRrA7kdUMPsTthD2uZNw9zpoYvCrhB77LNoA9fAqVPY3QK7ypM8y9SsWaO1kqb7zW0Qo8sR+QPQ2GA732RQm9cDhUPGJbOLzBGv897Bz8vJGGGD1MyAS9Jfa/PbxyEbyLDjs+gJ1HPYLByb03SkO9lmV5PcoujL2qNW28cxsvvVvJGb6CwmU9O78Hvj8eAL7MixI9DGUYPSMTIL2iIMG95YGZPfpT1r31Bm29k4ehvSCehT0h9P88KYMSvilrKb0zQHm9RENLPc0Bj72LKNK9VyGtvCQgbTtGCa49eNeIvD0GIz2ib4c7enFkPCJRDL119sk9mDROPdVy+zydA2i9stb3PYiMCb36Qg29K7OVPTcgDj0073o8mo4lvBAm/b1xJnY9w6etPQnxNr4HE6G9OnV9vQ/hB71pEms9jSSJveAwG7544W26Wt1Cvsftpz2xjO28afBKPc2cbT3C9Aa+r2RxPWl2fT7aIBK9ud4Bvk1+DDzfzXs9/oOFPSfcY70wD8u9XIjDuwRIYr4KBvI8SjFqPJgXjT1hC7m9bZIpPTnUmT0two89SpKIvSEtxjooS+G8BBCaPD9Ve72Ypq68/DnsvU3liT1aDrO8apppvSXn/jvPxXm8UKqhvRKRl72ZYda8OkEfu2g9lb3N74W7qdE6vOl1srqAjGA9ib0pvRipTz0vDW89cdDAvSgwKz2rj+A9AwqLPT8KEr34FkO8DCuKvUvivz3+ab69ZsimPfQm6723Cxm9WnIZPCP6jj0ODpW8vG30OTc1Tr2+r2S8VoiTvSBtuT2b3rI8c05yvXr7FT0e5YK8nnhGvlJH7L3IV5W9Rj60vcO64Ltf7N68CjicvelNsj3qVRm+AZ+svSnKtLxOH8Q9qo8SPofW4bvmnY09FKdyuxBvF71E+iy9ninlPdcj7b0pb/u9v6wDvsuEK768B5w9bmnWvRpTnb23G1Y9tR3ZvR/6S73p29q7qIBePeFMob1IEMk9wteQvWvoAr1cjiC9w+f0vXlxkb12VCK8EFwvvXCPuL3AdmY+DKKkvX3jIT5WC4k8mwC5veb6Mz7q7Ii9yMojPEJ9pL2RyCm+II7HOxR4HD4yhi68UYs1PsLXUT7o6je++XfUPe0NhbwjOtQ9GKr3PdprG74fNMc9PKKRPejsDr7YIrC9pAbyvBWs7L3KNbw8mtM5PfbDjTz6pC69qxwmvbfxIr0rOYI9HnqRPRM41r2ApD67d83IPN03Cry+D6E9RnOLvawbOT1E1j+9GKBGuigmlz0dSXu9SbDWve/KdD0ba6a9LXhSvcXWojxLNdC83V2PO2OKEb59LJy776DrPV7Slj0x1ba9TECPPcRvjT0GCA0950WLvd6B3T34pfC958JKPRGFBL2SEY+8m9aFPXCKCL6aW1E9cJrrPYnAVz1pYB09kxiHPeTJC70SegO+Gv/APcqcyr1Pi5+9HO0kPWg04738KRU8Hs4LviUbFL6Mmqw91BhIvHmdQb7ooYM9x1iDPTPRkb0DNqi9Q1qLvZr0Bj4gpLG9Xm6DvVRDD7p65Lu8xBeSvBqIjj3kTIW8QU2rPRfkkj13VYC9c5tUPRbxFj761629txCkOyoRN7z1hPw9AuFpvGSqn70qlB69fdGePXVPsL0S+LW9pFpFPJ38qT3ApuM7viTvvL0Csj3bXos84UhmvXgPPb0A0Nq8tyO3vT8Oeb1Zft28tG30PD50sz2XUlI7UkS9vSv0l722Yq481hyLu63sFr6T5D8+fyD+PNMYBD4DR9y9eu4lvVmXm7yM/IW9ccetvX4L4z17FYi9X8k0vdg9rDwVgAQ9WIqCvcUICT38DAm+UHFUPr3Lpz1abE493gm/PYeBlzwiiRi8+/A7vR3GHL3wutc9DRPcPFNuwL3Vs7C9T8E8PXHLzDuksD69dZibPWAAmz1akBU90v3nvMeYaj0ad/Y92TeFPfXlKz27p8U9sG8JPdwohb39Zwe979/RuslBpr1VSIu9rxudvFHTCDzKcZq8AC2+vJ8plDt3U3a9tujoPD+HRz0kBa08Z0mhu/6n4r0fnEG8A326vYFKhjwq55C90R0EPblYs70sREg96Qwrve4OSz0MXcQ8iV/qvEN22b0wcr89tm2PvZlg5T1ZNAm+IsoOPcQ72Dz3iHK+KHQ3vV0K2jx6g/O9a+c2PLhjPjpBfC2+NirfPWYkw71AFQM9hDsvvLqZy73o3AQ+PEmNvcoHkL2hq+a8ZrqEPRCmuz169vi9kbYNPr8w9L3WyRa9YpMfO3iJDD0VNgs8bKwyulbaBj66CVW9IvQJvlqwOb0jXUy88CukPQARDj610FK8oklDvUnbRruVUJ68UqlZPN3O5L3paJg9wGANu5OzaD0OxtO7qnEmvVaXhT2y68k91tcwvbRrGbzGd829O17OvS0gmj3gx7G9irSaPQBNZT64h3u9PBgYPpsYpT10+Ie9PI6RvXcvEr7lONG9/svaO1dWdTt2rWG9wdsxvnQysr2J7229iOz8vb8DqrwU3tE9QGmSvfRdJz0Wrx88zEQ8PE+oJT790oi9IWE3PRST4DxGE8y8eWntvVQIzT1KfaO8KyklvXrNnDxL1FU9rtTyPTZ4izxRZVe9FFmJvb1ZXzs/xQa7maiOvBFqSb1Fwmm9eegnPChW6r1k4VE84rRDvEjHzTzqGgQ+Kw8FPdVEMTtM7iI88T5dPPSsNr1kqg068HyZu/Lzqj2ILza9UI9jvctXZT3Tate89nXGu/PQYLv0oKA8Ai8vOj10AD1v5j09j3DWvc56Yb3QKIw8S9xxvf7sgbyV5tu8MQyGvcUH8TzOHru8piGpuwbZi77Wrgq+dYRkvfYNAb4XHsA9ClOCPcOUkzwbOzM9e9+qPEXUDr6mSdC9i3DhvQBXMT4RG6A8CqABPfkx5jx+Gro8sAnPvK0vMjw/6cs9bKKhO3Lywb1To/m9zTnuPUswjzwyQiQ9vrwgPsS8eDtH2BI+7cejPWGlMLqHcE09gMPgPLuzfj3p7v89rpWRvdUxBL74Zfk8HC2HvDF6Cb0O99S98jcJPSgabr1w3ay8XjuyvTbxIzxtJ++9bqGUPXbXP779pTo76U6jPe1lrb2O0P49lcy1PW8xXL2CDsC9SBgkPKceLb1dpzE8Aj3NvfxjZDw6Vwe+RQ1IvgHLZL1CyYO+kRtjPTNyrL33cBq9ScFUPfuu3T0Ppie+iKgOPXTLUD12dDW8079CPaZR5r1D5S89TjntPIS6wjwBqJM8LtnkPREUFj0cX9C8E0O5vANiMD16xQo+6N9LvTERzb0SGYO9byOcPSxswz14RpE9xWrIvHL27L2z/DY9IW49Pb4yJTvOfD+8rtr6PK4cUz3+ZoE9UBJXO/gqib2Sp/C91VYhPLXbnzrfLSW9XvEpPPYHrztHh7+84/u+vY/BDD4XeEE9JYpgPX+p0D3/iWa7ECZhPA0Doj2M7k+9jS6oPE+DLzswG0q97z6rPbSjFbxzHm08ppdXveBJ07jkkFW8XbMovoFY87yW4JS9vvGNvLG5Cj1Qw6y98pYIPbeOJL5EIya9OcswPbrgWL1bEW+98x2LPZ1mjb3SZgK+Xe6ePDyXzr3BIH+9e8Egvj6/+z3SDAM+EncnvhEXMbxGI5U7LtUZvcZ34L1S6Dy9Aua4vZHTjz20gcO9IzsUvnmAkLwsjTm9qQPoPJvfzb2235c856qjvfetiz2kmJ29lu93vaZZsb1ectu7dp7cPRywwb0yu9e97nfmvYrwKL6XFG89T2Fovs1eSL1tAoa9US6yO/2OCj5l0Ae+AAOJPONhe73KUiG9BaTpPEDRwDfsFz+8e+vLvZMjBr6zqsQ7/JW/u8pdJr7Ecqi9IghuPKfSG701oRk+8FuePQUd+rzGohA96FEMvm/eAbzwDsq87s0JvpbPWT3erGC+euhwPVH8b7wMi/A81iZVPav47j29FBO9xXOtvKn3izzcbcs9VeSDvUYDTL0Mu4O8yUVqPcWH4TuFPJa94ryrvaOSsTzdzvU8ij6ePYSN9D2f+cK8Voi3vafVUr2vQbo9bNCjvAXAhbxLSTm8Qf6Lu8FVYbslLHQ9hbxFvWQXuzwvXgC+v1NUvbT7pT3x+Ee9fKbFvaZNar0UGWU8Q9yHvIYisT39QoC8v0bgvQklZDxWEQC+4lkevQPcQb3ZNz88mgxPvbFVgrzTHIq9E8BuvY0mEjxn/g092KyLPK1wqL27HI88rDdXvZjKBL1IwxM9j8icvT6Zzj1PhHY9ANTIPZo+jr2x3gu9fGNJu9GPLr2Xdhw8G7MfPeUqRD14O5q9oqaHvXAgv735YZ0837crOzyVjzzBZZk9oGP8PIFivT3hZFY8YYMBPl2BY72mXxs8Of/mu8wTIr1cgzi8/CKAPeYmvjzOhji9fTOCvXZpO7yPB988qFxtuZ1CYb3FnV89sNX3PcXyl71kMAm+5hu5vR1gbD2kdYa9Mv6bPW7XI74QXG89fmwOvrdyK71P+wE+8d8XPZIoVD7RH4a95+A9PSPVrb2bJPe9bWI3vmotBr3Ffiq+Fq8wPes/5j2/fYQ9GjgpPXG+nDyE59s8e6YePdVEjL0IP5u9Geq6PT4mC70sXm49a/q+PDpbFz42mOW7c2GxO5IGabyi7WO8zpO+PQi7qTz5KBS8NdhhvPGL4Lx6Eom96Ry2vRzWmb0g7JA9MbhWPM1VL7sXxI28juKpPfWfBD7ZHHW9FbFRvA+GTLwfUW28UT/hu4WHIz1TupS9S5vgPW6CqT01TLY6QZMFvkk4z71vKus80af4vYb40DxA3cm9+kQuPWFVCT3lcta9wt76vXGdMj0F6fq7y525vb38uLxUMKe95m/qPMhM+r34/ps9suYQPcgmvr3jdr87Jfq+vFnhDL3pvL69ywj4PUjoJb2m7m085yWNPMpmGr153oK9vvEHOl3CVD6U4u49kWHgvSRBNr0/1ly9s3kCPYpsEL7GAla77kOLvUC0Ab1W7cI9yzwJvaUBoT0VInm9d04KPmi0jLzSg4o7HiuDvQuFVT1Klgq9dkQ/PUzi4Ds/3PQ8jcDQPIQfyTlLzhI9o4VpPffEFTuE4kw84KA/PbgmRbucKOO9t04Mvq1ta7sKdou8qSgXvb7cTr1SFaw8t+HwPT8N8b0JSnu9iFRKPqvJp718h9E9xGkbvajK8by5QbK9v8lDPYIq1T39rR8+ggmiPVccH72rDJA9AVcHvPBwyD1sH9C9biw9vk+ZoT1p/e49I0EJvS2Phb0vLc07hvsIvmV1F7659CM+pykJPmaKvb08zky935lLPVknRbxEd768xxLFPRQyjL1cJSA8UwgKvarr2L1T5Uc9LRNPvRkdqzzNjxW81NIZOtIChTy9GUm9NEuvvJXb/D0FIbY7q/iKPHoUHD1yXZC8npnCPZ7n7jxw1QQ+PUmoPVCsrz3iQAu8sA9/vbWvKD1Tmb49HZDnPepL7jtgj/A8ZPQDPm/KJL2Kx9I8CRbJvLvIOL31sdU8OvE4PPNoYr33cEU9Q7yFvfEDkz3Tma68c5jlu5J7ir39pmE9J0ONvNOTkL1AlRW9VvOXvQPJGjy4VOo9pmqCva2VeT3mnb+9va6evSOCw704FAq+L9bFPX/wbL2ue7U9gtsXvQqSN75II8M9Lm4EPuKT0zqHnkq9XZaCPGxkoLz7Rlk92P43PXKBV73YXfi9FXeUPcEN97usZYu9r292PYsaB7uEm/U92LDtvClLrTz+58K7YMbMO7u5tb26z9M9rYMnvQBJFL3lEw691eoDPgWuoL3h+4C80wWDPaF7Rr1at5+9sVTUvUfHmz3qEp69A3y4va7cbL6kAYE+U14HvorbUz3l6Ee9emQCPctPxb32Vj+9MOBAOnSdqT35Qno9HviEvRqug73HwnK9+XGLvZvkn7uHchS+SOJgPIBJCL4/UvE804eUvZFwvbzCObC99+srvfJQ37sKMDU+XR53PVHsnbxQHIg8AuO7vFWfzj2eV729OzSgvTCM9T11L0k8jV7Bvb5Kcj2HQxk9NA7Hujfshz11sC490PzGPNxMMb29IFW9pw9AvB89Fj0xfui9k5z3u2MqFb0Douw62lOkvO+lur1/95M7zajRPAABQzwuv/U8X1u7vO5d5ru43Rs9cYqqvPjDm70wz5S97vLfvPTwYr0xT2y9zG0NvWWDiz21O6E9JaFdvK+7db1EeP68MTkTvLECnz3CH3w7LMiAvXJ9872PD4C8snzsPCdYxL3QpsS8G/2ivQ27sT21Sim+dAHaPGsq1L2u6Ki9vGsBvnSqj72WiQ+9jAQCvkByhT3BXN08H9Y5vZ0E6bvKC9g838QZPNSf0zyicJ69cj0bvl6nIT6uTVC9f0GfvQAXt73t1O69b8N3Pf3tzb0spbs9xpMePOYeXbtvpeO9lOF7Pegygr1+GAG897pHva/rib3DBFy9bWOkPHlZYz07ZCi9i3AhvN9b3r0nVdM90nVSvmRNpjxPlB68/uP8PFZ2ADupzAq+rn4vviJDMT5/Npy83zkyvT9qs7txJPO9VPv0vdUIIr4yY5g8A5ocPR8HhrzVZH49OA/HvT7aQz02Bvi9ZAzuvXpNGL6vn0c+pe4Svv5asL3Ram09lKHMPMZ+cr187Bq97OQbPsim5byBPp088fvYvSx52D0KC1g9g1WsPZ4Ahbx0L0S9MKoCPa1cwb1frfW9H4+yPK/iCj2EWVQ9AaP7vdjNHT2FALE9nhG9PSbkTTzX08W8HQ/SvetYbz2UFTk9MPOlPV21DT5iCnG7j4aJPSygxj31xOE8il07vecplTws2N096MSMPRgYUz0Be0K9KkbIPYR/pz38Y6W86aeNPAvLR71YYNy9msa7PAgOMz0AA+o9WC2yPf9wO70FD929zy6xvaNNNr3riSG+Y5EovTBc/7tkvfU88L3sOKfcQbteJwG92BqxPNVzYT2ODze9EB5gvALZN70XMS+94ROzvUA9KL6LVLC89kkdvVfxSb1N+8i7XwZpPBzAvr22AJ29kt/8vD6PQD0LyAk9kWULvtN4UD3U5uq99Ty5vLMNjD1xkji9ecPWvOXWjD0czV49M6wOPXKxkr2QTfQ8YLmivELplzwQP2m93BGhPQJjTLz5UD2859eovR4koL1j6te8eVrfvEzBnrzTSxG+BJjgPc32i70Tf6G8FrvKvS6vB75B+L29kfHwPcmCOLwQY0k7fNyyveL5i73k4Ne9vPYBOzd+vbyyaYc9vaGyu/zwTrut/wS9+0oEvTqmJz3M7p69lf60vaRDJz7wnOW9C8EHvmKDgz0RTL88q6t6PQhYyT22XkQ9yDQrvTAd4j10gl49Z+40PkBZHT0Zu0q9z3jpvaq5Jz3yfZG97khGvAhAxL0hH4W9sYQSvDuBZT31Wty51ddKPUV9hDy+Eww9Mw10ulFjor1GOz897iLYvCpl4D3gBl29EqmgvXgEuj3+fyY92fSpPesfQj2wCnk8iHh4PdgWID0b3mi9SbKhPMFQczxGgoK70/W3PGCTaD0grK48PoWMus4RB72Bo6W9uAD0vQCfDT1TlKg9xZVbvasDxL08Vqm9ZQKovVcM0LxGgbC86yY4PMa6Yb2jQoG8wgvrvWzfWL4ue0K9rxa6O/zzIr0aadk7gRtZPWKYYrtvDCA+p/C+vVZy+j0uB549lacfPQqIQD3X1my9q5jLPJwi5D3ERNW8AqrdPTanfz22Qey82wmHPWhzczuYJJa9vYqyO/xZCr53r6g9o4A1PQ+VqLsD3KS9nJMmPLIeyDxm9DQ9KnPbPFXRNT1VxS09G2LYOsHbg71ohK48q56UPeuUcDxbgvO8/7QfPVl/KL3lA9E8THIFvvDEtr1zstM9PA4fvtBMkb0SFBQ+4gImvV+ncL1xnXe95qAnPsLzfzwl1nY+bz8kPff0TD7wzhe+Nb1xPCZjVbzPDD895LcCvCgDh70K5iW9Lv/QPWwsBLxO27C8LuqaPWG3fT36RJo8eMQoPt1fp71fJQ87i/vAvQ1lZT05LYo8e2Ccu548jbztfru8mhJGvel7Jr3/ZBO8zL/GPREvib2rQu88k27TPWOCiL2RwAg97LcaPM8D2Lwr64G9OB8hvTtXaT1un009tY8QvSWJTb1swIa8tbX+vdpxYT2l4p497LwLPSPkOz3Ujp+8+Hc+PVemHT1BXbU9204gPYcNar3iIxE860QvPYbctD2I9748CF4ovTEI3T3jCba9ccGtvK5Hgb05xyG8kBpPvZq/6L3WrhE9Z8BIvClKSru51PQ8bMQFPbgGcbxGzLY8LkDtvVBCDr25/OA9QbwtvaCnNj1Uor+6EfXtvKoTYDxaP3O9UeUsPEfZvL39eCw9/rhgPYcduryjNXi9wRz3vZEpjr3EycQ8rHyMPEKfw72FJgW9zOxUvGM0OzzaAWg79Ee/vH5KVr2Farw99mJcuzhlN714YSQ9xcZ7vdx4YrxcXzg+cwpuPlnqUz2D6am94zRsvKnMPD1AsWK9+VQYvWy/grzR7Eo87/r+PRFh0j2lUJy8HJWuPQJpIz1uZL08EIEIPXBBzbwRMyy9jtggvVzSrDzx5H29bBT9vKeFZr0cCDW9TDg0vQHRlD32TPi8XMicvT23wb1zsrU9QUNZPTXUt7wROca97MCrO+rAnD1Qma69K3kgvX0biLwIW968UyylPaXm6z1mUO69hgMkvSOWJL7PQzA+sQ6+vUT8ir1kBHU9gihTvUU5sT1G5Qk9f6bQPJD9A72oXpO9Sc8LPvYopbrj1Mu9gQ+SvQwSK73v8oo9h1ZAvVUTtr0LAzI9eLwDvdRPyD09eg68dbGUPSwSmT1xU7o7RTncvMQeFz1qyb89YEikOz+qiz2NQjm91YmbvNSKgLz82Kk9DNZPvZs3dTws45E8l12QPfhEoT2ZEhC8SRvRvYdsjzxcvkW8YpdWPa7/fD2uhC29Kea4vfYeHTxvu2O9V95SvaHE3Dwh7dS6L25JPJMZbjz+2Ei9UrnCPbazYz2ysEe7kbfku1P0mz0G+do825QcvizP0b3Yx1G8rLeovF24lL2KGAq9IbfFPeqRFr2uoqS9zCBJvT4qMz1JqVw93nXFvfLS1L3Vlg8+xzS6PfgJW77iuMK94rFTux9cibzOoBE+N4/IPYScNj0hhKe7tG9avMO7jL1xa109tyZqvaKhMz07rhu9+pq+PDoutj3LQSG8BCa5PAERLz41AZu9r9vHvbzDzDwrXXC9dM8Fvd8FZ71gg9Q90umXPfXAjz3NNoi8gIn7PXLwkD3IKJg9AiTUvZu4Kz2Ru8495W5JPRZPVbymeCC+BnEAPgfe3T1vwS2+BI3VPNRLIr7AVMo9aHi4O0RJgr2C64+8R5MUPTlkrrxoPq88JGuLPB4r2TuMRIs8b24TPNQQg71xalO9srcHvM0Fub3O2go+AMwevPlmGr2YVie9t5BPvcv6pD0Ifn+9QFK3vW3x3ruTYo49IzeOPf6N0T0S9se95uSFvYnvKz0sT4c9rkHGPSmt1r34grM7u3/BPFdOtT3SrX89i8JovYTrYrzc7Z29mD3oPXgkKL18gmW+FZArvVHuBr4S7wM8bfa6vWrEUbsaTLW9UHcovgkCyT1WSYs9jxyRvNF+sb3eSqI9ab6NPQjCiL2Jiku9lwOhPUyxKD0tKDO9FjR8vSytYb2D9RA9xyAivDJBSr18fiS9HkmMPUXHET5wJAo+Ae2GvWxvpLy9cgU8M22aPLC8HjtmtqS8KRZMvSX48L3cd0q9MUHIOykgorwvNds8N7+yPWgrcbau1gA+IMC6PTricTxgscw8sHmHPPtYcLwSrQs9jL2dPLlu/72NIey99cp+OtJkBT7JOMo9TGJAPYDnvr3nLDu98Hj+vP1RfT3tB2E90aV0O46EAz6cjKI92/7DPTl6wT2BFhw9Ixl8vYGDLr07chO96bEeu6I+xD3Qq1a+qi0EPusrmb0pwve9Yf2vO1CeSbye5dW79SnXPYrvNz7Bq/O9g7cSvQNpnr39YQW+ua4mPshahD1X6/k9QFUZPraqS7ltS6K+GcA5Pfg4NL1puwK9OXYOvhWwn70A3ta6VlAzPX+d6zulyYo9udfYvdkWtzyK0T09RyN+PVqOer2L6x+8PKBlvTiozrvBq0+9smXoPQdJHz244ZS7BcgNvBZYrrzO5W48bzJWvmxj9D0mF6U9DCK+ve5lpD3e4WE95wHOvPxEsT3IIRG6jDn7vfKOk70X8v09aAmGul4i9DxHXBG82R0PPfGHUz3XsZa9RL7iPVQRRb1B8Am93fGuvEg3GT11PXw8xpfOvOtECDxgytS8g515vTzaz72GDY692LjlPUnUDT5w/YO8OdwdvRSlWb3DSzU8ywRAPShOYD0FQTk+vrNDPgLI672YKvK9Y2HQvWX1eb1I1nS88mgGvjkkYLxmCqO9ritfvRkcqz2gqmG+Zk2MPbfwE76uNUw+EdiuvdJm+z1SKFK8oICQvfp6mbgl/xc957Nlus2b/rx0Q589RnorvWbFqT2Og9C9WMUZvHLo6D19Tf88/yYqva22vb3Iv1+8x6f1PWTN6b14TC+7vKLPvcaZgz187Og8xTjNvOobzTxfSlw8j61svTizxDj/gVO9IjKhvH3qwbyvxMa71JYKPapSbDzqVqk9TUV+PBDgfr1hUX+9NXNrPV0ttrzHbGs9HPTCPEUUkjyk/AQ9/Imovej/6b02RMs8lfPYPTpZRj0QiD09cn8EPkLJ0bwTiZk9Xpg8vDkYFb2j8hw94PqEvQ0bjT2FdBC9HrqJPIEv7r035fI9bpjqPBKrRrvemjw8gPrlvdvGJL1Nd608klMCvSaHLTwxZNQ8qMxfvXJfyj3gXdo6Fn/UvBJ7hz1f8KQ8m1dlPh3Dkz1GzEu96IpOvhNuqD0xoRA9KnHNPSMEBL5XW/c8tQ5KvfirfT29XZc9HG4mvbF51T1enrY8WF+dvUXXo7yiqZa9oosCvFVaHb21row9wEyXPa12qjzAz1O8STRFPTCnBD0iPQE9K+BIvst8/73+AZs+yqUsPqaCBTzF6Lc8KpZTvCtfqr1m3ho8ZEcAvjw/2L1kzge9lyBPvW6GgD2qsnO9CG5SvXRKhD3Fq6i8Gvv9PPPlnL3tD7K8AZXeO6fXJzwn6pE9dlp0vf9/Zb2FrPE9npBdPM5CCD5GUMm9+8nivRmEFz0QWW4++f4SvXOBBD10Bum6UZpZvUrQtz0wA7W9TFNGPo7leD3ngra9DZutvd2n670CFxe+b2T/PctcBb7aInU9QCQJvvT/Fb4SF/s8OsanvhZJij0q4I28iod9Puxa2LtGL0I+r2q6vbH8Cj4aG849O1i/O4gMrr02O9a9WZhVPv7/nb0brDK+XZfdvRXmib1+BS68tvQTvUuu0z0mM2o+ayAgvq0mG76h3Qw+sXKRvbovwb39W249ieUjPSaBrj29+BO9xP5cPJjNgj1j9rA9pIHqvDxfM73w6MI9mVH1vMIfjbxBy2O8uQLPPLbLZjx3hoO9c4QlvUnQYz0QGQw9y5CYPd1lHb1Bxjq9v7FRvbzgCr13IiS9oQ4HPl8iYz7GOHK90Gr7Oo6TFL684ho8YUhGPRjAUD2mf907ymANPTaZtjuGLi09HNdpPU/DGL0Wkuw8VT9hvfH3kzwufRo9+8XiPZP2Cj0VPxo9hh56vZ+lljuHgYw9NDINvq7ltLw2NOs8wiqDvJjEtDyKZwu7KqkXvZ6md711Hyy8mN5bvaMtsTzS7IO9RSa7PI1Uvb3SxK68rwHZvETcAz1jkue9ApapPMAOYT71Fo279O6CPURxBz29tdI8f/MqvdJp6Lt/0My9mNt4vcWk2T1dmyG94BqTvMauPb1Hz6m9fYdEPtK4uD1/Tii+dt8dvcbP673BzpQ+iDtJPCd11b3Rr4K9BsvDOpBeQL0c5hw8/9levYr1vTwFkog9BQ1oO0mjDr1KmC09ieWJvSa2szx5mi4+oNDgPV+7m72iht69J1ZYvRG5Fz56ghy7xQAQvdnhW70q3+e9ySkDvQENi71D1zC8/ozIvNYBtr1JwFy9HkG+PSIMjTtr4bS9k8wivpHJxz27dta84MMEPn9TqD154Qm7/JlFPap/qz0JngG+KaWUPUCaCb2zXNE94HTyuQHmED4YpAs9gZgIvqa+5r1cB466OdMTvmc2Hz1U/Dm8SDNlvM95ED7h6Ya9m5b8vSUi/bxifFG7i3lXPHcwdL0E90E8gqEIvV4Zmr2KXr29KBihOUlWv718WQI9yqgTPs26izy6ZNc8VmgFvWKaLj3q3ky8n5yCvfkGqz0Moy67UDw8PTRcp701Jqq8ujndPLfd2bzj9I+9H7eqva1Cijyd4yG8uvpDvXFto7xfVq28FmQSPnYEGjwva6s7IUIvPRAi4j2gYnA92TkoPGhmPbtaF+Q92pnrPbFvvT3ojU49S6BevAFkCz65xy89k+gUPheQtzyFFrY7XHG6PLaI170vUMs9uzvSveFf5Lz70P69/w/GvbR4Sj1csWI98qZ0POzOQz32Ztg96SDBvWc5OLvYmKq9fsLZvUHuEz0JoVk+k/nnvdqVlbxUx4C9aMiEPUbeIr7dLmQ8w6YDPlH0OLx1KkK9fwpHvGC2ab2dAZi99fAyvpWJID4WI0G8Jp/jPUNEXr0XiZi9Sk2YvcWvxz2gQve8sKhSPJbeRbw/hkW9CCOaPeuClj3eD4q9LTNQvX7syz3Zlqo9jHoqvrLHJ7y7V/u94DuKPsnc9ry/1LE9yzqEPSlXUr1iTxK9yquovOySkzut9hm9MobPvLL5oTjlk5M9oTHQOb0yAj28DZ29tBB8vcPRZrsbRjy+MiCcPejKnL16LQY9ipf+vbQIFjuYUeM7RuyoPffjvrzuH3c82xmYvfFRf72dvzC9ySvhPV9C370P8cC63QxeveZNfD1hFZc9dTNRvWWL8b2iBJU9DEzivd1D6b0pPh8+4M/dPdTcT72aVd29c6YLPgGWw7zmXQI+2BHIvLRaAD77Zzu+yr4UvHnDzboV0FI9DaJOvLccXjtfJ7g7/quSvR/di724e+s8+FKQPVeXy73Pb5w9zWG6PRgaLL7VGxO+j5yPve7r8jz4cL49V/WnO1zinLywE5y9t8wHPOdoXryOuam99cibvDUdsD2CYjq9d2QGvU4hvD21hZE9DcGwvMzunrx+tAS+NpFPPfmaMr20pYw9F6j3vH66171/iLa89QGxvEgPDb1bWxw9gu6FvQdpVL2iUeW9UiVYvk/dSz6oviQ+q1uJu03Yqjy//yM8Aky0vVGNzr09Cq091AjGuznn0z0aabe5tAAWO41Oj70ePTA+UiwWvg1blLz4m7I9Ll5bPaQHozzZd9O9B0eiPWfNoT0raqs7uXbNPYjY0DyAGT++6/NlPdtKS77qaPO8QVQ1vhffNj2HKMC9iv7DPWUX+7yjslo9X65RPt0xJT506V89nUeYvVrN5zznCNm99BZiPSe57bzd1Yy7765rPXAiyr1Wvq69mEJdPZYl273nyN28oxZ3PAwPLT2a74E9BCecu4S0Rz1xJjg9J2GSPUU4urvgeX+9UrmsvJ/eRr67sx8+sDadOzLyDD7YL5I7fl1LPdF7Zz1noKg9AfScPL2fhD06fIs8b3SHPZ5qpT1K+249NX+ZPYsnsL1/1tE8qpVYveh9gTxF0Ic7bL7CvZQbtj21wi+9DXE3vRz8Fbsb39A8mVvoPEgovTy6+3C9vshyvWLT2j3RTMc9/vF9vIji0DoW1Y29D4YVvtbxB73xkc49ZDUKPiwGNz0R5XW+tvO3vXQ9Vb6zCTk+qPW8PQLN6D2UUyC+/YHzvC5rxTz3pMU7FlyFPXbTIj0CwQo+wVATPenZ27vx9ke+NsGJPjYlIb4OqFe9URU6vnjXyL3QmCE+9Tf4PVPmij1LWXi99Ofau8q+tLzwnzM+op+XvWFXjT1xIvq9GOFuvC0IQTt3JZi95NktvF3nVzxScRa8Y2IXvZ9MJby06kI95qKkPbF8L71F5GG8Wb+cPYBGA7576gi7huyGPMK1h70IynC9ofO2vKm85jzEqKS8tauWvOrlzj3T/428xtEUvZRpGD2n+AM+JkJZvQdmKj7x6Qm984L0vAedyj3TbHK9jkUcviUsqr3tYAU+3PJNPZ5jr73Mbw+9ecI9Pbl3vL3wXDK67riqPU5gkD1jqA8+uwQBPWMROryHcfs8bOhYPV2CtbwVcly9uEG5vWawAb2jwlA9YTXzPBxxkz0LLBA+uOFyvL8RLLwZvpG9pDw0PbLMLj4QAhG+wgNPvZYzprpl9/o8hDdGvGfDGb6/2KE7QCF1PQrjZT7avo09ZYGIva4mBj0mqwi92Bw/vXLMLz0VsXs9OFLFvYb2lD18Mt87QYh3O6xEe72pgZU9rHmFvA8Iuz3BkI6924revWgadz0+Pdq9b+qaPjpaPj2CSGC8zJFSPixZDb429Ly939yZvNQpp70M9lC9iPQaPPncmz3MCYI9yiDKPGh6J72z5ym99sktPTIAGb4NDDw8RO0+vSp7Jr715yM+fTUVPkzfir1gh7Y9SaLrvfN8P73BLCu9iIupvbvBbT1HLnK9gBv0PRbIUr1+WCI9tCIGu7pRpb0kIq0+33hLvnv9Vz11FnO7uNtovkiWO749uVm+cWynPRdZsjvdKoo9akIdvkMdgjxhsyc9nCwCPUtLiD36ggU+0LKBPl1yxLyKaDi9Y9okvnW0er1jjns+v10qPVJgyLyPF++8mOi5PT9gvzyFepm8tIwtvcRY7DwIIhC+Zv8BPPGaSD0YSJ88fnVGPk5ENb2jJcS9efvZPUIS/LyK4A4+cHS3vNRnWD1a0lw8CFLqvUFlrb37zHm9Abq1PFSAubtkvoC9T9WbPRDffTllPk88F4yfO5qX3zinReM9qk2gu5spzz011Ms9Lt5CvWZ0nT0hHga+O3GlPfLv5jxdZfI9U0/BPRydk742pA6+akHIvGc6ID7pZcQ88jNlPWUT7zyo4T48qwYwvZgXgT1u8n+7DTyXvfBOOr0a7fe8PlqBPAILDT3BTU2+2qEtPQ3x9DwtGNA7lyGzvYMh2L2HOaI9G0dVPnteDT5rfSW++1aUPcuw0r05QiI8iuTVPa1BDz6BqFK9HBHQPFUrnL28PtW9Aw3zvK1aLTz+gV++XXspPdyiUT2uLIU90TosvekwDL7QJK+8750RPeDeqz0XwIE8ApkEPhgZuj2eKbQ95CqQPbiFLDzAd2A8W2UQvV/BK701jm+9MtncvXxajb2tgoU9lNq2PSRpnD3+ucW9RFkUvM/9ITxBVIg9m5+7vNO17r2Q4sm9nqSFPTw1ET0H7lO9IQV/vMd4mLt6NLK9EYhSPWY4u7yJ+IS9evcMPjj3Mb0I2VO9fkqIvIVHBb31+W09RxuDuyWPar1NhRy9HC2+vTjn+b2jtdg9IYbQPV8nNT3gSoa71xuEPeh0171C8Ps8yDbDvbHzNb4jeIO+5AC6vVk0tD2c/0M9JS4OvhX0Qr3mCo891MRzPpZ51Lwujy87GVTjPFRhkD2c2Qa9LEYUPvk+pr3b7DW+XkdlvXzoOb1L/eq9khPAu0Cugj00hYY928yZvUKajr0FJxo8PZsEPkBra732YbK8qPQLPkfKUb0zMgO9knsPPX79Vz2tfIS9ut8mvbL2KT2e2409OYHtvV3BXz3KoZU90grlu6V9gD3auKC9sL+vvaq6Bj0D4Xc9KL8AvZzZFz2OPqO9OeKWPNeYs70SiY89+ajOPJ8Ljj1USP+8w/ZCvRdp0Lw7XbG9s/A0PRq5krwgKp68FCwYvrfvLz5atk+7yU9oO0guHD7qhTG9A6h+PLY1CjxReUc+CG81PfaV9r21R2m8vMZ/vbLLRD4RGrE9fqKBPgvqAr1zA1c9HMm4vMIv1D2qA3K8EARaPSCh0zxtFW69Zc1Nvan3WD2BlLE9/SAiPB4A67tDu0c9Yp8JPY2wuTykC0a93SARO1g7Eb1lZYU8UapovaDLqD3zACA8QZEBvvfeNT5/p269je2HOqD6/b0LySC9PpoSPSqwmz2cGTy9pT1YvTeIYL0BLOk8EIoYvNrkazxf7Lk93AsBvSYbvzz5L0Y9CX4avtUdvr0t39+9/dIkPlu3g70mKRw+AYOzvTN+Ib5gsw2+wKEEPl8BiL3iA7E9uzBuPVHRlb3htB89uhzJPKR9lj2uMEw9+p6wvIEBnr3XOTo8P1LovBJOP71qFZi7lyuKvXSriDx9HIq9zMdAvX2HIb2byEg9FKyVO517hT3l65O9eYAlPk5emjqeau+8b8+qvf5o5D1zQ+m9vyX+PWGga740THk9JVCGvs2VWL10fxE+zeaFPs4W+70ugtW92hc3PnaPtT3saty9vPnSPNmVCT794Yk9dBrLO+8VDD5oVry9WqiJvQFcNr2Sd8K9x+AVPqMTjL1VmLq95kjfvBphgL3qkLC9z9orvZYqFj6EgC+9Gxa5vAwqHD5076q8yMTVPYX7Fb71Y3q9pJC1O12FybxD3ZG9DZYPPgnF3b0tSz89Q5W/vZTIq728CES9ZmzwvNNusb0Aqeq9uQpJvbtqXT1zHeO9JvMIvZgPMD1Giwy+QxTrvBrspD1PvgG9XrSCvQIEGzvrQqq9S5ImOhXznD0fpge9vPz+vOuEIb1IExA+UkAXPvs0L72qNjq9+dw5vqanvb1xshe+ZV1Fu1BgGr38fpS9OdJUPU/E7z3CNLi9G1HIPUgbgL6wYuo9oMg6veZsjj2w6oo79K7FvfnFbb1tJ6C926COPe65nr3Ov10+y3SKvMwKPT59lnm9xGzOPU8DL70b1mM900bJvEbr4T2APVg9WViBvTqHKz0Mnc09xEe3PA7eYj1EsvY8d78xvYDRTT7QkxY+5sU/vU1fzTyLwH69nR9yPPYVq73mQdc9rhYGPXJRMTwp9vA8NZ5evUjZjDyb+Si9dvICPRDgzL1VZO27UhcPvaeJyj15ej+9fPmDusONSD1MCoK9qpgcPmA8Y7w59ak90L7EPC+yyTyY+GQ9WczPPO8TBT6pdRE9Ya4UvZn8SL1hz5U9YJVtPZLnDL5y1Sq9Bf1lPfPBQb1SEzI+hF2gvUlXMr0vrEe9/ZwyvP9WjjydsKq9M6TXPXPQmrzpmpU9pcMbvPYN0rkTr/c75M/yPPuLED7JRjK+u8LsPSEa/L21d749X+JXO+/7Gj4fZhy+RquFu7lK1TylFcA8qyU3vT5m/jzSr/E9YbxAvXH9nzxIZKm9NoycPF7L2byloHG9do2BvXOmOD6YBxc8gRjhvUZn+b0Yk7G9g6CQPbbhSb0zPy094GQjvePOpb0C1eK9fqQOPd28tL2VInK9IgcIPVozPr5NwJy9IuABPbd6Bz5hvFA9iN7evK0yqzuZtdq8qsvTN5gXU7xWqJc9W41FPcY5XrxKTeu8bCcLPWNkjr3OoPY9yjKevUfc0L0sLMu9Tb33vMM82r3idt8817p/vby/3j00cyq+pv/LPfXSfr1CxpU8R7TuvehEDb4+rMK9BgJdvcsMHz7zAOO7nGGXPQwLx7tUnIK9MPAjOBodkz3141C88MJKPW50Hjz31nO9o+m5vLaJ3zsPAuI7jKMMPaA6iDuy1n88KRwOPNWjqT0pDfM8z4bbvU2ZqD0X5So9fKMKPrSzqT2QBpK99sYOvjbq7zvdsAQ+sLnqvY8bjL1ZIRy+swdHPLBfjT1dXhU8D/jgO5o6GL3+E5g9ScyevQNrwDxNhDc+Uhg+voSw7bx/RsI9oRwMvChIij3EeDK9A5qyPemUhD2YAwK9gg75Oku+IL1SACM9p7gpvI7jWrx5K5i9GVsUPInKIL1EDJK9VuqCvGLOGj6p5wG+2HrYO6D2mD3rFIG8jJgouZy4gzymlSW9/P5XvbYC2L2Gy+q98/q3PYgCqr18WY49k+9NvQNiGr2ydbO9D2gkPgERHj0fdK29OX6ZPWUpf72KB7o9ULeUPVlb1Tylahg98F2OvAfvAD2yyoW9ME3nvYEtaz2T/ng9CLRmPLTjYb2J7y6+EqSavM9GhruE2Yg9VT4DPhb3IT10v/U9MVK5PRyojj1MHoc7BM2ZPqntzrwsZ7O9jq6SPOEgRLuVH7a9/pRlvJaBOr4PRkK+AkeXPCAPhL1mHpK9Jn52vSOtPL0ZmMy9ozc5PL1l5D218eE99F47PQmiDr49OZI8aHEQvSbQfj3P6Qu9PYCwvew05D067SK8YeO5PT3+8r1ouxM9dZDnvPEDxb1s9oI9Kml2PQytQ7xd3Bo9NaAJPLdX9jy/O9e8n6PjvBAnOD14RJw9VBkavASSnLwEKU48CxTUPbaj7b1W1UI9MDvZvNmNtT2xjA8+gM7JvR+5Tj765pG+g3wrvo+gQz6EAMW9ITkCPqO5zD3y+fc8hhW6PEbwTr1ofTO9L4uZvQpgaj2o9lA9tAUoPCQ3E7xNChc+fhtsvSgCcr2kgb08UWd5vbiegj1MPCs+Ls1BvXhd7b30tpC9oIj5vZQDCr7sh8U9KDBEvaNPNb3dmow92/37vSgeeryuzxE+zIuXvTlGP7yAtZe91gTEvfNl67yc2Bq9uc4YvtJ6JT7vABu+WVE4PVei8b0Srpa9SrPPPOHdo71U16m5p14HvXlUiD1UK2e95kROPVA1Ajzlxou8GM+dvVgdCr4R5fy8dU6gPXAjOj5N0Zk9wo2BPeqBm72yd1q+ceEAPtg+8b2OPRq9gYGmvEykhrunpBe9UFEoOjxkyrzN9em9muAUvVhnsD3/ECa85kmVvXBfA76OgY+8HrBQPo6/0zxxsKi9nS2+PZG+0b1J6CA+W0invcXxZz06XN093+SqvKZ9Jz33KI298CbwPCwmTzwI7Qw+0+jEvVUhNj4+og6+sCMWPai0mr03yKS8u2xpPSGeOj46rYu+OyTqvU3hPzxBFyg9LXocvTwYqL3Kc4s+yOQOvtqY6j0KqwG+kWcYvsOKrDxdrb+9RUz/vPalOr0eBHi9zyKBPbGWoz1cUaC9dXMtvIWOED6tz5m9LCZQPROrp7s97WU9q17ZPW87fb1HCL29256gvfjkdr2Xrfu8qbO1vK9Wu7pgwoq9G149vPjBzryaGIE9FsZvPcv25TzLofe9bfGPPbKEwDuU7DQ9c+1bPUq7tzz58YK9bO5lvRFtvD1SQai95wIWvSO47by+L/A9sY2MPWMXHT5UN5I9fCBtvQ0itz3RRY49yA4ZPcgAcL2g1Ua8eH+6PKR3Vj1P+qu8dk0zPJPTDb0JkRA9ZPDhPSxTvzwN1iS9rqH1POXbLz15zi09hwHVPczFATwIxpE9awqlvP9dtTymFMo9/zpevI3HS72dg3G8QcKEuuDfNjoT2ce94J3YvP9eJD6djkk96GvNPIKpC77aMak9bHNMvpjxlD3H4hW+iAc1PnTK9juTbxA9QGMuPvq1Yr0yyxC9C8soPbJ7tr260LQ9317zPKSiKz2mQsI6v8yHPKHHWD2ZisI9TWy/Pf4SeD2lc+88k+fAPBxnQL3vGYe7LEIiPNV+/T3Outo9zp1YPTcerLwFx6G9rZSHu8ZNiD3rkza9sXxFveDzhLvaSjs9NqhdPTGxfDyw4em7NTWXPSKFwbw4gSs9yCo9vQuQ1bxj1XQ9xiQKPQ/IbD1+9JY8kRNovXh4wbp0C6G7nvBWPeQ3dz1uBUI+4DqyvBwNTL3gDq493kB+vV/cnj1qzmy9LZxKvnWWXL2XzbQ9PSSjvebf77zi9oa+CXeVPRWrCrxUhug+w4pBvvzQOrriVpe9XPaTPVwmSb1sPyW7sWOQPmh6973oThs+2uUFvh92Jb6sCTU9iZMJPDYIQr3np5+5ykfqPB80W70sczk+Vc6jvSK/H738r+c7b27kvAojmryFtZ88+Bomvd7gCT5KUjK9qRsEPb80A73I3Aq9VjdwPBoC/r1zIck8a8FZPYkIVL3lnoO8/8VnvYOjyj0TzGq9k1ukvdeQAj0laSE9HyJKPMfroL1qyFk9tFqzvVB97TxUWm87AVFGvTkExrxDaTq9fBbCvfIarD2Bl2I8sBoTveW4+T1g3v29dxB2vX3S2T1ehpM9izqYvZb4qr1BMJi9gxzOvH06GD67o+q8bHLbvEO71D2ABee92SaAvJwGyTyqbBO+E18GPrUZjr1g67U9Br7PvUwXnzuauAW8WC9sPYUJoD2EWP88JO82vsHLILuQ4TQ9n61FPOuav73YcMg87dDzvcpcjD1WtMw8PihzvUVp/D1ZChO9ClqmPKytcb2QtBQ+KXBKPVwu7j3suV89qVuYvbURtDy7+na9B8WCPQGHNj1YHHY9fCkAvaK9q71Wa0K9LuT3PPJVdb0+xWE9NkV8O2h0aD1IjFq8yFAcPI5LkT2C1Xm9om8+vZkJbTyukxU7YhRHPXLxur3A6iW9h5eEvbdA9bxiP8A7dt8OPW4CYr0+EhY8ag2GPTQQsT3eZZ08JIOLPTHan70q6he+qDixujvpRz2n13s9u+mLveS3Tb02fJg9g8VpPR2slz2t0Bq9WfZ2vY01ST0rMAS9vaD1vK7cvL0dekU9aaPyvNOQNL33gm49Pel2vq8MwD33A6w9/YgwPdayrD2I1Ri9U4PKPX+sGb5qYMG8/Rj6PGuCuj0V/+w8pKXcPdKalr22nU6+Nh93PWbUObxAw869B/IgvvNd+byRp8a9NJw0Pk3NOr1LvWu+N+e3vIxFMD0MLrg7ujNFPdZ/jL0JE3m8BhEHPs684jtS/eq8APV9vFJoUr3EjhE7P9/NPXRjd7xozo+98cgbvW/yI73TEto9Tt+XvElCnLx2baE9ABLgPc2+p7tbtsm92zJlvUX5Wb38PjC98TwfvWcF9rxD50a9/a2cPfiNg73KbIa8sM14vTSzkz1MR/a7hzeVvcrRGz5qFvE8qHqIvcHktL2D9Km9SV2au+2MrT3aaiy+h32wPaReqbzznNm74Ok8vAAmbr38t708j2sAvUt44r09XsE9c0fXPYr1qryAISi9qMScvafurbyMQOk92aRnvP/9hj2t1H09cgdovZGmpj0yH/m9nY3yvFYA7D3++7E8EntHvmeAPD20WDe9vp2kvRLNjD39ikq8xFn7PKJWyb1AGF+9kqvIPcwvPb2Qb7y9QYQsPehTMDy6ojg9IEXnvO/llb2N9jM8w6cBvbZOhT1RG9g8TDpkPdiXIb26iBk9Yt1evGENTj1C9CM9YNY0PevsrL0pUB8+I9yWPWDqXD1aZx++ZOUnPsGJJjxzqLW96aJRvtiGB70K8qQ7LzoUvL0EDzzOI789j4tuvSkkKr1z6R49DHvePFxUd73Y+cc9fEl8PedbxTzGVDU97vbIPe6+ir3kR0g8zkSHO8Xjtj1UeaK90wo5vCruXr3c6a89kmcIvZp8vb19q0i9z5fKva2QS7zwBui9ESy3vYVOJr7kLnU8huBDPhZEvz2V4ru7kuiOvSJEGb3Vx2+96ruou47T6r2XZsg8IYNwPfg0Pz7SAOy9PcT/vS0fQTyMgKS9sak3vVdp8b2+3N29TEWSvTQYgz0M6ve9OM/bvauEMT7Txiy9ylGevYMzeD6V2Pu82UOzPUt4A7whn2S9/9+XvVh2HL0YhR29hVWRvUatsj24loi91pqRPX+Crr0LG2A9lxqQvWF66bx3i6e93QDwPe+3cLvqIrW9UzuBPQQbzbxJS3G9avXlPN9OFb0diKK9mTSQu19SUz3/dT090ta+u5E6nj3L3kQ95BnivMikGj6QDIi+XYDxvAgn+T3QBwC9edizvDJKIj6LEAS9x5fru4AP2DymUPU9KdV/vPKT5rzHRdQ9UyCBvV4vJb0rpIc81dmavNDSELyWhB88mauMOyo8Ub2TMaA9GbkzPkabk7xzOYA9PDAVvUY17704mlI+sYeXvcXrq71ZrX+9WiXcPMVWorv+5Ks8bLsLvggOD718UjW9Bcw+PtZngLxECJ27rFjWPLw1oDwxflW8TpTVvC4zm7v+xIQ7BqKUu33CBT3due+8","model_metadata":"{\"format\":\"layers-model\",\"generatedBy\":\"TensorFlow.js tfjs-layers v3.5.0\",\"convertedBy\":null}","info":"{\"dateSaved\":\"2021-04-27T16:33:38.602Z\",\"modelTopologyType\":\"JSON\",\"modelTopologyBytes\":2125,\"weightSpecsBytes\":389,\"weightDataBytes\":23976}"}